11010011111101011101110111101000000110010000010100001011000001100010001000001101000010001101111001110011111000100001001100010101110111010000010000001100111101101101111111111001000010001101101000001111111110101111011111101110111001001101101111111001000010110000000000000000000000111110001011101100111100010001010111101110000000010000010011010001001000011111000100011100000011001111100111101011111001100000111000000010111001101110010101000101111111010001010011110111001001100000101000000011000000110001011011110011
11011111000110001110100000001000111101000000000000001010111001110001011111110111111000001111010000000111001000000001111100011110000010011111001011010010001001011110011000001101000101011110000111110001000000001111100111111100000101100000111011111100110111110001100100011001111111000000100100001011110010101111101100010110111110111110010100010000101110011111101011100111000100001111000000001000111100111111010011101010000010110001101100001011111111110000111000000101111110101110010100000100000010111111001100000010
10011011000000111111011100110110111111011111011000000110000000111110110000001101000111010001000000001100000111011111110111100001111110110011011111111000110101001110101111011111000011111101110100001100110101011111000111010011000001111111111111111011000100110100010000000110000001011101011111111100000010000001001000000011000010101111000100000001111101110000110111110101000110111111010011110110111111010000000111110101111111110010011100010111111011110000101111110101110001010000001000001001111111011111111000010000
10001001001000000001000000001011001001110000101000011101000010011110101100000110111001010000000011101001100000100010011100110101111110001111001100000000001011101110011111110011111110100001000011110101001100010000110111110010000011001110001011110010111101100001000100010101111010010000111011101111000001011111100011011100111101100000011011110111000100001111111000001101000011110001101011111011000010110010000000001110111101110000101011111011111010011111010011111010000011000000000011111001000011010000010000001110
10111011111011011110101000100001000110011111010111100011000101000001011000000011000011100000010011101110111100011111101100101000000000110000010000010100111110000001111000001001000001100001000000000110111111100010000111110011000000111110100011111001001000111110100111100111000010110011001111110110001000011110111111101100000010000000110111010110000101110001011011110000000000001111110100000000000000101111101000100100111110111111010011111100110111100000011111111000000100011111010111110100000011001100100011010010
10011000000110110001010111101000111101111111101100001101110111100000001000001110111111011110111100001101111110010010000011100101111100101111010011110110111111111110010100101101111111111110000111000011111101101110001011111111111111000001001011111001000000011100010000100011000100101111111000000110000000100000010111111000111110111111101111000011000100011101011111110101111100101110010000011011111101001111010000100011110010100001001111111010111011011100001000011001000010011111110111011101111110101110010011101011
11111001111010010001000011001011000101001111010011100011000010100010100000010010001001001101000000001100111111000000110111111111111101011110111111101100000011001110001011111100110111111111100000000100000101010001010011110111111110010001001100000101000001011111000000000100000100101111111100001110111101000001101111001101101111100000110000001011111101010001000100100010111011101110010011101111110111010000011100001010111001110000100111101111111111110000001111111100111001011101111011101100110110000000001000011110
11110111000000001111011111110010000000101111011111000110111011000001101011110110110010100010001011111001000001010000000000000110111110100010010111000110001100011111000000000000000000001111111010110110111100101111001011110100111101011100111100000000111110100000001011010110111111110000110000000001000100110000110100000010000101101111010000010111110101001110000011101101001010110011011100000101001101011110010100101011111111110001100100000111000100010000001111110100111010110010011100010010111110000001100011010000
10110111000001000000001100001101111110000000000011011001111111110001000100100101111111011111101100010010111111001111011000111011111101001111011111101101000001111111001000101000000011001101110111111000110110110000101011000011001100000011000011110101000100111110000111010010000110111111011011101001000001100010000111110110111111011111011000000001111010100000010100010100111101000000011100010000111110010000111011111101000100100010000011011110111011001111100111100111111111110000011000010010010001001101000011101101
10001110001011011111111011001100111100011110100000000010000101110000001000011101110111010000010000000110111100111101101011100101000000110001000011110010000111010011101000000110111111100010100000101000000000001111010000100100111110101001110000001000110101100000000000011100111011010010111011110100110011111111110011011100000101000001010000000110111100010000110111110000111110100011011000000000001010101110010111110000000000001110111011110000111110011100110111110110111110010001010111110101000000010000100111110010
11111011000011101110110000000000000100101111011000000100111110111110101111110101110111100001100111101101000011100001011100010111111100111111001011111000000010001111100011101110000101110000100100010111000001001110011111101100111011111111110111101000000111000001101000000101111011001111100000110111000111000000101000011101111000010011001011101011000010010010001011101101111001101100110111101110111011110000101000001010000010111101111111111111000010110000000000100010000101011111110111111101000110101111101000100000
11101000111110100001010011100001110011100000010000010000000001100000100111101011111011110000000111011111001110110001111100000001111110111101000011111001001100000000001111110110000010110001000100011111010010001111011111011000110111010010001011111010111011100001010100001011111011110001100000011000000011100010011000000011000011101111011111101100000000101111011000000101111000000000101111010110000001111111000100000010000100000001100011111011111111100000001011111101000001001111101011101000001000100000001000011011
00111111111011111101011010000000000000001000000000000000010100000010000000000000000000001011011111111100111010011001111001110110011000011101101001011001111110010100001101010110111110111010111111001111111111111011111111101101001111101100100110011101000100000001000001000001011000001111110111111010111111101111010011111100110001011101010001000000101011100111101110010100011000010001000101001110000001010001101110010010111010101000111010001010101111100011101010010010011111011110000000100001100010011010100010100001
10010010000000011110100111100101111000001111011011110010000101110000101000001011111010100000111011001111111111100000000100000001000110001111100111111010000001010010010000000001000001001111100100101000111110001101101011111011001100011011110000000001000011010000011011100101000011011011111111110110000111101110011111110011000001001111011011110011000101000000111011110001001110100000010000011000000001001101000111100010111111100001011011101101000110111111000100010011111110110001011111111001101011000000011011100100
10000001000100000100010100010000111111010000100000010000111101101100000100001001110111011101110111111111000101010011000111100011111111000000000111100110001000000000000000010011000010011111111111101001111101101111101000100100000010111111011011110100000100111101011100001011000011000000110100100010110010000010100011011110111011000000000011111110001111010001011011100100000000001110001011010000000110011101100011110011000100100001101000001100111010000100110111110011111110101111000100100010110110110000000111101111
11110111111111000001011110111110111010011110100011111010000001000001100000010010101100000001111000001010000100100001001000011110111011011111111000000001001100000000000100000111110111100010001100011110111111100000001011101010111110001100111111010110110110011111100100001000000000110001011100001001111110011110010100000110111011011110010011111011011000110001010011101101110110111111000011100001000010001111101111010111001010110000001100011011111101000000000000001010111011111111110011101110111110010001000000011011
10011000111101100000100100001100000100001101111000011000000000110000100111100100000001001111111000000001000101001110011100000001000100101111111011111111000001010000001111011110111111101110110011111010111111111111000100101001000001111110111100001001001001111111110100001011111100000000110000100001000000010000010111101101111111111111011111110010111001011111110100000010111000110001010000000011000111101110001111111001000101100000110011001001111110001110001100011110110110011110111000100011000101101110111000010100
11110101111001110000111000001010000010001111111011101011010100001111111000000111000000001111001011110010000010101110110100001000111110001110100000010010000110001101111100000011111010110000111000100101000001000000111111100111111011110010000111011110000100100010001011110000111011011111000011110101110110110000010011100101111011010000110011001111000111111110001000000101111011001110010011111011000100010011100000001001000100111101000111101000111111111111101111111110111111100001100111111111000011101111101100100011
10000110111110011110111111111000000000000000001111110110111100000000100011100101000101010000011111101011111011100001000000001000111111000010010000010011111001001111000011110000000110001110010011110101000100101100101111001011111011011111111000010001111011011110101111100100000001001111110000100110001000001110010111011100111010001101011111111101111100110001001100000001000010100000101111110001111110101111110100010101110110111110001011010010000100010000011111111001111101010000001111100000000000110000010011111101
10010111111101010000100000011101000110000000100010111010000000101110110000010100000000100000010100010010001001000000010111110111000001010010001100001110101110000001010111100001000011011110111011111010111001111111101000001110000000000001001111101100000010101111010111111001111001000000101011011100110011111111110000000001000000010001010000001110111011011110110000100011000010101111100011000001000101000010011011101111111010010000010111111110000000010010001111101011000000101111010100000011111101111111001000001010
11010110000000110000111111110011111101011111111111111011111001010000011011110011000011111111001111101101111001101111100011110001001011001111100011010110000001101111111111111011000010111110000100001101111100100001000111111110111101000000010011101001110101110001001011100001111010011111101000000111110110010010001011110001111111000010011000000011110100100001000111111110111111111110100000010100111011101110111111101100111111101111000100110000000011001111111000100111111000100010010111110110000001000000100100001101
11010100000101000011100000000001001010100000011111111111111111111100110111010001000100100000001000000110000010010000100011110110000101100000011000000000111000001111100100000110111111000000010100001000111111101111110000010010110101101111100011110100000000010001100111111001110111010001101011110110111101101111010111100010111100001111001100001110000010001110101011110111000100010010110111101111111101110010010100100100001100001111110100000001000000100001010000100011000000111111110000001110001000110010010011111010
10011001000001111011011100000100000111101111101011110100111101101110101111100010111100111101110111111000000001011110010100011100000011111111111100111111111111100001000011111010000010001111101111101110111100001111001011000010110101101111000111110001110110011111011111111101111100010000110111100100000001101100110000010111001010011111011100000000110111110001111111111100001000000001100011110000001010001111010111011111111011010000101011010011111110010001100000101101000101100000001100000010000000010001010011111110
10001100000000101111100011110011000110000010100000100110110111111111100000001001010111000010011011011100000001011111110111111000000001011111011111101111000000110000111000000100111001111111000100111011111110000001011111001110000010100010010011111110000110110000100011100010111101101110100100001111000010000010000011011101111110110001010100000000000011000001001000000101000111011110001000010111001011011111100011111100110101100000001011111100111111001111101100001100111011011110100000100100000000011111111111111100
11001001111110100000010100001011110111110001001111111111000001100000111011111000111100000000111111010110000101001111000000011010111000110010001111111001111111111110010000000111000011001111000111101010000000101110100011001101110111011111000111100001000101001111011011111000000000011111111100000000001010110001111111101101111101011111100000010111000100110001101100100100000101110000101100001100001001101111100000001000000100011111011000001010000110111111000111011110000011100000010011010100101011000010110010101011
10000000000000110000101000001100111111000000111111101101110111011111010111000110000001001111111100110010111110110001010000000000111100111110100101000110111110110000111100010011110111001110110111110110000011011111100011111111000000101111010100001110000010001100000111010001111110001111001100000101111000010001011100000111111111100000100000000010110101100000110111110001000011101101001111101100000101101111111111100110000011011110101000000101111111110000001011110100000100001111001000000110111111000000000100000000
10000010000001100100100001001000111011110000001000000011111111110000010100001000110000111010110111111101000101001010001100011110000010111111100100000101111111110001011100100000000111100010001000010000000000011111000100001001111110100000010100000110000011000010010100000111000010111111000111011111110001111111010111001111000100011101000000000000000001001111011100001101111111100001110011111101000110001110110011110110111101100000101101001001111011101110000000001000000010111111110000001000000001010000001111101110
10010110000101111110110111010111111010001110101111000000001101110010101100011010000010111110101111100011110100101011001000110110110101100010001011101011110110100101100111011100110111011110000111111110110010101101100100010111000101100000111011011101001111100000100111110101000100000011000100101111000100100000000000000010111000001110101111011111110111100000111111111000000101111111110100110000000010111111011111110101111000110001001100000011111011110000001100000001000100011111101000000011111010010000000011100001
10001110111010110001000100011100111101100001010000011110001011001111111100010111101111000000111011110001111011000000101000011001101111010000110111111100000010000100000100001001000011110000010000000010000100101110001100000010111101010000100011101000001011000001000000001001000010011101100100000000000010000001000111111001000010101110001000100001001101010000000111110011111110010000001111100000001001001111111100101110000000100000110011100101111100101111011111111010000011011100001011111101000100011110010100001110
11000110111110100001111100001010111010111111111000011111001011101110000011111110111110101110000000000110111001110000111100001100000100001110100100001011000100111110101100000101000010011110110000011110000001110001001111110010111101100000100000101000001000111101011111101010111001110100001011110000000110010001001000010011111111101111010011110001111111011110101000011101111100101110110111111111000000100000100000010000111100100000011111111011110010100000011111101110110101101111011111110110001110011111000100001000
11101011000001110010111111100101111001001110000000010010000010110010110011101000001110001111001000001001111100000000111000010011000011011101011100001101111101101101001000000101111010100000000011111101111111110001111000110010000010001111110100101000000001100001000011110010111101100000011111110000001011100001111011111110001010001111101100010001000011111110011000010101111011000001001000001010111101100000100111010111111000011111100111111010111101101110110100010111000110100000100111100010111111110001000011111010
10001100000011100001011111110111000010111111100101000001101111011100101111110110000010001111011011001110000011000000100111111100000101001111111111111001000000010000001100000001000000111110100100010001111100101111101001000001000000111111110111100011000010010000010011110110000000101110010000000010001010101111101100001111001000100000010111111011001101110001100011111100111011010001010100000110110101101111011010110011000000000001001000011111000011000000000111010101001000001111011111101110111100101111000001001010
11011000111001001111101011110011000001001111011011111101000000111110100011101110111101011100100111110100111111000000011000101000111111111111001100010010000011001111110011111110000000010000101100001111000000010001001111011011000001011111000100000001111001000001001111111011000000111101000111111010111010111111010000000111111111101111001000010010110000011111000000010011000000100001010111011111110001001110100100000011111111100001001000100101000011100010000100011110111100001111010000001010000010000010101000011111
11110000000001101111110111110101111100000011000111111100111000101111111000000111111111110001110000001010111100101111110000001101111011011110001111110010110010010000111111100010110010011111000100000000111110101111110000000100111101111111110000001010000101111110111000011110111001100000100100000000001110100000011011111011000011111111101100101101001010111101011111110100111011010001000011111001111010100000110111101110001000000010000000001011001001100000111011110011111011110000001111111111111101111101100000010011
10011110111111000011100000010101111111110001010100000110000000000000100111101110000001111100100111110110111011000010000011011100000011011111111000000001000000100010001100011100111011000001001111110101000111100011000100001010000000110001100100001011111010111111101011110010000100111111000111111110111101101111010000101110111101110001101111101101111111000000011000001100111111101110111100001011111110110000011100001010111100101101001100011101111111011110111100000001000110100000010011111011000000111110111111111011
10000100111110111110000000010001111011010000001100000010111101101111101111101111000010100000010011110111000000011111100111010001000011100000101000000110111100111110100111100010111110001110101100000111000001011111011100000000000010110000101000001001001001011111001000001010000011111110111000100001000010110001110000110001000011001111001100001010000101000000111011111000111000000000110000100101000011011111101100001011000000101110000000000100111100110000111011110010111000000001011000001011110011100001000011100111
10000110000100010000000000010001111101111110111000001110111001011111110111100000000110000000111111111110111110110000010111010010111010100001000000001001000100101100011000000001111111111111100000101101000010001101111100000111001010001110100100011000000011001111000111100100000100010000100011111110110111101110001100000110000010101111001111001110111111111111001100011000000001000001100100000111111011010000001100001010111110001111100011110110000100111110110111100110111000111110010000001001000001110000110000100011
11111110000001111111011100011011111110100000000111100101111011111110111100000111111110000000001011011001111001001111111011101000111110101111101100001000111010010100001111111111111101110000110111100010111111010000000011100111111011000011011000000001000001001111000111111011000001111111000011101111111110111111101000001100111111100001010000101011000001000010011100001101000100011101111111100101000011110000001011110100111011101111010100001101111101010000111100001010111110000000100011111001000010000001001000100100
10000011111100011110001111111000000010011111101100100110000000001111001011110000111110010001001100000110111110011111111100000111111110111110011000100010000010000011100011101010111111110000011000010100111111101111111100000111111010010000010011111000111111000000100100000111000001001111001011101100001100100011110000000110000111000000001000001110000001111111110011110110000111111111101011100100001011110000010000010001000000000000000100011001000100000000110100010011000101100010010000001010000000111111000100010010
11110110000010110000000000100110000111000000111000001110000010100000010011111011001001100000111011110011111101010000000100000001110101100001001000100111000001111111110111111010000001101111110000100110111100001111111100101100111001111110100100100100000000010001010100110100111011100001000000001011111010011111010100010111110111100000111000000110000001011111101100001111111101000000100011100111111110000000101011110111000001010000001000000001000010100000001011100101000010110001010100000011000000011110001100100100
10001111111110000000101000001000111101011110110101001000000011000000110111110110000011001101101011011110000100001110100111001011000111110001000011111011000101100011000011101010111111010101111111100110000001001110100100001100111001111111100000101011000010101110110100010000000100000001001100000001000011111110110000000010000101010000111111101111001101110000100111100010111110001110011011111100001010111110001111110011111111110000010100001001000011000000001011100010111100000010100011110101000000010000110011011000
10010110111101101111111000010110000001000001010000010100000000011110111111111000010111001111010011110110000010000000101100001001000011111110101000001011001001101100111111110010001000111111110011011000000001100000101100001100111101110011100000010111000101010001100100010100000110111110100000011011000101001111010111101010111101010000110011110001111100011111001111111110111110001110111100000011000010110001001000001110000100010001000100000111111001110011111100000010000101010001001111110011000100000001111111111000
11101101000011011101010000101001111100101111011011110011000010110001000100101010000110000101000000000111111111100001000111010110000010101101100111110011000010011100110110111110000101000001000111101101111000011110111000011001000000000000000100010000111111011110110000001000111000010001000011010111001010011111000100101001001010111110100111110000111101000000111100000101000110000001011100000101000000011111011100010101000101100010010111001000000101111101101011111001111111110001101000011110111010001110011100000001
11011001000010101111100111001001011011110001000101001011110010110000111100010001000000010000010111111000000101000010001111100000000101010000101100010001111100111101101000001010111111010001110011111110110001000000000100001010000101010000001011101001000101001111000011111100000001010000010111100110000010111101010011110011000010110000101000110001111010101110101100000101000011111111010011000100000001101110101100000110001100111110111111111000000001110010011000010110000000001110100011111111110100111111010000011000
10011110000101001111110111101000000001110000101111101101000111000000001000001111111110101110110111110001110111101111011011101101111111101110111011111001111111011101101111101110000100001110111011100110111010010001000111110011110000011110100111111000000110110001100000000000111110001111100000000001111010101101011000001011111111000000101011011000111100000011101000000010111100011111011100011001110010010000110100010111111101010000101000010111000001010000110111110100000110000000110011110001111101000001010011101100
10111000111101101011111100000100001000000001010100101111110011000001100111111011000000001110111011110111111101011110100100001111111001010000100100000011111110011111011011110111000001100000100000001011111110010001111101010010000000111100111000000110111110100011101100011000000001000100010000000000110111110001101100001111000000100001101011111110111011000010111100000011000011010000101100001101000101101111110001000010001001100000011011111010000111000000100111110000111110011111010100010000111010111110100100001100
10001101000010100001110100001011000100001111110011100000111010010000010111100001111111110010110011110000000010101111111100010011000000000000100000000001000000100100011000011010111011101111100011100101111101110000110111100111000111101111001100011010000101011110111100000010000110001111101011111010001000111001101000001011111111000000110011111101111110100001100100000010000101000000101100011001110110010001101000011110000110100000111000000101000011101111110100001011111100111110110011111111001101010000111000000100
11111101110111000001000011111111111101100001000011011101111100010001111011111111000100100000101011110000000010101111101100000000111100011110111011111101001011001110101011110100111111000000111111001111000011100000101010101011111111011110110011111101000010001111101111100100111100010000001011111101111110100001011111010001000111110001001100000101110010111111010011101100000000111101000100000111111000110000100000001110111001101111100111100100000101001111110100100011001010101111010100001100000011100000010110111011
10010110111011011111011111110101000100000011001111100100111110111110100100001011111100100001010111101011111101000001011100001111111101111111000000001001000001010000000000000001111101100000001111111110111011101111100100011110000100010001011000010000000011010000011111111000000001000010011000010001111011110010100100001000000101001111100000011101111111110000011011010010000011000000110000010111000100001110010000000111000110000010001011111100000000101111110111110111111001101110111000110001010001110010111011111111
10001011110100101111101100011001001001101111010011011111000000011111010111101110111010110001001111101101111010001110110100000000111100111110100100010010111110110101110111111011000110111111101011111101000010100000110100000000000110101101000111111001111101000001000000000111000100000000100011111001101111010010001100110011000001001110110100000000001010111110111100011001111110000001110111110001010101011110011100001110111110000000000111101011000000001011110011110100111111100001010000000010000010101110110111100000
11111011000000010001101011100111000000111111000100010000111110110000110011110111111110100000000000101010000001000001001000101110000011110000100100001111000101010100100101001011111001100010111111111101000100010011011100011011111110100000100111111011000110001111101011110100111110101111110011111101110101010000100000001000110110001111101100001010111111110000000011111101111101011111001111101111000001101111100011101000000001001111111000010010000010110010100000001100001000100000001011110011000000000000010100000010
11111001111011101111111011001111111111101111101011101110000001100010101011101000000000011111100000010110111110001110100000000001000100001101101011100101111010111110110001001000000010101111011011110111000110000000110000001111111010000001000000000100111100011111001011110000000010001100011000000001000011111111110011101110111110111111101100010101000100000000001100010110111101001111001100000111110111110001110000001110110110001110111011111111001000110000100011110010000000000000101111110101001111010000010100110101
10001001111110000000000011101110000011001101001000100101110111011101100011111010010000110000110111111101000100001100111011111110000111000000110000000000000011101111101100000001000000010001011011111100000010101110000100001000000101110000100100000011111100010001000000110000000110111110001011110111001001000001101100000101000110110010001000100111001010011101101111111010000010111111111011101100001000100001000100000010001001010000110111100010000000100001011111110101000010111101011100011010111110111111011000001000
11010010111111111111000111111000000101011111001011101100001000111111001111110001000000000010000000001010110111010001110000011111000010111111110111111100000010010000110000010010111110100000010100001111111101110001011000010110000001001111110011110111111111011100001100010010000000111110001011101101000010110000010000001101000000101110011111101001111111000001000100100110000101100001010000000101111100010001111111111111111011010000000011101111000011100001010000001101000011111111011111100001000101100010010011111010
11101100111101100011001000001000111011010011000000001100111111001111000100011000110111110000111011110110111101001111010111111110000101000000100011100110000010111110110111111110000101111110100000100101111010100000100000001000000010111111110011000011000001110010110011111011111101010000001111011100111100001111000000000111000010110000010000001001000011101110100010111000111100000101001000001101010101001110000111101110111011100000110000010010111110111111111011000110000000010001101111100011000000110000000100000110
11111111000101000000101100000001000111001110110000100100000010101110110100000111000000100000000011110000111110001111111000000101000101111111111011101100000000011101111000000110111111001111011000010010000010010000100100010011111100110010010100010010111011101111011100011000000010100001010000001000000100010000101100101011111101010000011011111011111101011111000111101011111111000001011100010100000110010000110000110011111011111110001100101100111011010000010011100111111111100000111011111011111100101111100000101101
10001010000100001110001000010010000010011111100100100101111110000001010011101110000001100010100000000001110111000000011111010111000100001110101000001101111011000001001111100101000011000101000000001001000100011111010000101000110100001111001101000111101110110000110000000010000001010011010000010110111110000000110100010101111110001111110111100001111101100000001111110101000100111111001000011001111011111110110100010100111011011011111100000101111100110000100011010100001101110001101011100110000110000000110111110010
10001110110100111111101100001100111110100000101101001011111000101110010011101101001000000000011111100011111100011110111100010010000010000011001000010110110110001101010100100000001100111110010011100010000001010000001000010011000010011111000000000100111110101111111100001000000111100000100100001011010011000010000000000111111100000001001111100001110010110010011000000110111010010000110100010010110110101101110100000011110111110100001000011011111001011111111011110001111111101100100100000111111111011111111111110000
11101010111110001111011010111101111010111110100100010001000000000000011000010011000011011101111111101100111111101111010100100110111110110000011011111010111000010000100111001010111111001100010011111010000001110010000000100000000011111111011000010000010100010010000000010001000101010010000111011011111111111110110100000101001001101111011111011010111101101110000000010000111110010001001111110001111100010000110011110000000011001111001111110110111010011110000011101101111010011100011100100000000001000000011111100111
10011001000010010001011011101001000111111111101011010111111101101111101011111100000000011111111100010010111010011111000111111001000110011110000111110011111001010000010111001011111010101111111011101011000110110000001111111110000011111110001100100000000011011111011100011001111101000011101011101110000000001110111011100011111110111111111011000110000001001111101011110110000010101111111100001101111100001110100100001110000111010001100111110111000000011111001100010110111000110000000100000000001011001111110010110101
10001001110110001111111011100001000100010010001010011101000001011101011011110001000001001111110111101101111110010001010000010101101100011111101100000001111101111111100000010110111111011110110111110101000000010000101100001010111000100000010100000100000110101110101011111111111010011111101100001011001001101110111100001010000011001001111111111000111010100000010011110110000011101111111011111011000100100001000011101010000110100000100111100101111110011111011111010111000100110001100100000010111000010001001100001011
11011100110111100000000000001010110100011111100100101100000001000011100100011000000011011111001000000100111100011010001000001010000000000000110111101110000000101110011011100110000001100000100111111110111111100011010010110100001001101111101101001000111111100011010111110001000010010010100100011100111101101111110000100001111100111110101011001111111100101110001100000011111111001110011011110010001000011111111011100110001001011101100100001011000000010000010111100101000000111111111000000000110101101101111011110101
11011001000000010100000011111010111010001101000000000101111111110010001100111101111000110000110100000110111010111101101000000011111010010010000011011011111010111110001111101000111110010000101000011111000110011110010000101001000010100000111011100011110110110000010111111110000011111110111100100001111011011110101011100001110010101111001011011000110100011111001000010001111011101110001000000101111100110001010011101010000101101100110011101110000100111111101111110010111111111110001011001111000000011111010000011010
10001100111011111111100000001011111111010000001111000111111101010011000111111101110011011101101100100110111011010000011000010100110110100000110011011000001010000000001111110010010000011111111010110001111011111110010100000110111101010000100000000111000010111110101111111010111111000000110000000110110011111111010100011100111001000000010111111110111010011111010011101111000110101111101000000111000011001111110111101111001011011111110111000111111110000000000000010010000001000000110100000001111110100000000100011100
11010100000100100000110100001010111010000000011011110100000000001111100000101011111110100001011011100001001110111111001011000001111111001111000100000111111100101110101100100010111001001111001100000100000100100001000011111110000100110100000011111110001001101111001100001101110100110000100100011100111000101111001000001000000000000000011101010101001000111111011111101001111111110000010100001111111000111111111000001010000101110010111011011101111110001101100100001110111010110001100111111110111100101011101011111110
11100011111111010001101000000110111011011101110111100111000010110001011000000100111111011110111000001001111100011110100011110111111110000010001011110101111011110000101100001001001010100000011111110011000000110000000011110001111000101110000111110011111110101101111011111000111011100010000000000110001100010000111000001000111111111111101011100011001101010001100000001111000001011111001100010100001010101110010011111000111110000000010111110100000000001111110011110001111001110000000100001100110110000010001100100001
11101011000101011110100111010011000100000001111111111110111101110000110111110001111000110000001100000111110111110000110000001010111011000010011100000011000111010000010000000100111100001110000000001100000010111101000111111001000001110000000111111110111000011101100011110101111101001110001100100101000000010001100000011100111100000001010000011010111101111101100011111110000010001111101000101111111111010000011011111001111100010010011011110100110111110001100111011010111101110000001011111001111110111111000000000100
11101011110111010000111100000000110111100000100000101101000001111101011111110000000100100001111100010100000010001110110111101010000100010000001011111111000000000001110100110110000111101110111100011100111100100010111111110101111111110000100111111110111101001111110011101110111010101100000100110101000000000000000111110011111100011111101000001000001000100000110111100000111110100000011110011011111101001110101111111000111111101111001111111110111101111111110000000100111101000000000100001011111101101111010011110001
11101101000101000000001100011010111001111100100100011000001000001110110111101111110011110000000111111110111111111110001100000110000110111111100100010000000000010010101000001010110111000000101011101111111111010001111000010100001000110010010011110101110111100000111111010110111010110000100011110011111010010001101111110110000000110000011011111010101100001101011011100001111110001111110111110111111111111111101110100110111100111111101000000001000110110001000111101100111010010010100100001110111101011111001000000001
11111111111110111010111000000011111110011111101111101110000011000001111011111101111010011111111100010110111101110001111100000101000010110000000100000110111101111101110111111010111100110000000000001011000011011101111100100010110111010100011011011111111110110001110111111001111110011110110111101000111110010000111000101100000000011111111000100011000110101110111011110010111001100011110000011010110110011111101111100000000000110010100000001011000011010000010000100010000011100000101100000111111101000000000111100100
10010101110111010000111000010011000010100010001100010010111100100000000111101011111011011111100011011111111101001111001000101000000001010001111111110110111101001110110011110101000001000000000011101010000100001110100100100100111011011111000111110100000010010001000111101101111001110000000000000101110111000011110111111011110100010000000111110010110101100001001011100101001001011110101000001111110010111110101111100010000000100001000100001101111100000001010111100000000101101111011000101001110111110000000111100001
10011010000110011111101111100111111111110001100111111011001001011111010011100100001011011111101100010010000110000000001111101010000100010000000100001001110111110001000100000010000000110000110100010011000010000000001100001111000001100010000000000001111000000000110011110101111111000000000011111101000100010000001011110100110111100000010111101011111001100001000100101101111011111101111111111001110110000001100100011110111101001111110011111011111100000000001000001100111111011111101011101110000001001111011100100000
10001000001100001111101011101010111101000000000011101111000000111101110000010000000001010011001000001100111100111111111000111111000111010001100111111100111101000001111111100011000000001111110111101110000011000000000011110001000010001111011011100101111100111110011011111101001000111111001011100111111100110000100111110011000001100000010111011111111100110000101000010000000001011111111111111001111011100011111000000010111110101110111000001111000001101111110000010110111111011110010000000001111011000000000100010010
11110010001001000000001111111011111110010000001000011001001010001110101000011101111011111111010000010010000001100000111111011011001100110001101110101011000110010000000100000000000010001111000111111111111101011111110000001011000011111111011011110000111101000000011000000110000110011111001011110000111100011011100111110000111100000000111000011100001010000000110011110101001101010001110000000100101001111110111011110101111111111001101111111001000101101111001000011111000100011110111011110110111101111110111011100111
11100110111100001111011111110100111111010000001111111111111111101111001100001010000011011111110011111000000100010000010000000101000000111101111011111110001001011110010101000010110111001100101111110111111110010001100100011010111110010000000111111011110100100011010111111100000000010001110000001000000000000000100011010100111110011111001100111110000110110000110011111011000011110001100011111111111111000000000100000110001000011110001011100010000011110100011100001001000001000000001011111111111001110000001100000010
11001000111110000000011000000011000011000000000011010011000000110000011111111101111101111111100111111111001110000000010100001110111001111110000111111011000101110010001111110011111101010001100000001100111110101111011111110011110101101110101100110110111011100000011100000001000110100011001010010001000011111111111000000000000001010000010111111011000010011110111100010011111110101111001000011101111111101110010011111101000011100000001000000100000000011111011100000100001011010000001111111101111101110000010100001110
10001001111010010000110111111111000000000011111000100001000000010000011000000111000001110000111000000111010100000001110111110111000100001111101111100101000000011101101011110010111111000000001111100100111111111111110111111011001110010001100100011000110011100000111000110000111111011100010100000101000101100010011100000101111111000000101100100000000110001101100000110000000010100001010000010111110110001111000000001101111001000000011000010111000101100000101100100011111111110010011100001001000010010000100011100010
10011101111001110010011000001011001001011111101100001010110100111110010000100100000011110000010100011010001000111100001100011110111100111111000000001010000100010011011011110000111111111111001100010000000000001100111000000110001000010001000111001111000000011111100111100101000011101111011000010000000001011110011010111100000001000000010100001101111101100000101000000101000100010000101000000000000011001100111100011011000011001110010000000001111001110000011111001011111001110001010000000010111011100000100000000010
10010010000011001110010100000110111101100010011011110000111101111111011111101111111111010010011011110110000101001111010111110111000011011110111111111110000001110000110100000010110011100000010000101111110011001111110011111011111100101111110100001000000001110000101100000010111100100001010011101010111000101111010100101101000011110000011000010011111100011111101100010100000000000010000011111111111011110001011100010010111110011111111000010101111110011111011011101000110100010001111000000101001001110001000100011000
10001111111100101111011011101010000100001110100011101011001000010000000000010101111000111111001100011011111010000000011111111100111110111111101011111011110011001111000100010101111101010001110111111101000000110001110001100010000010011111000011111111000001011111111011111010000010000000110011101010111111101110011111111101111111001111010111111101001101011101101000000010110111000110001111111101111110011111011000111111111111011111010000001001111010100000000111110101111101001111010011101000111100111111000111011101
10001011000110001111100000001000000100001110110011111100000010100000000011101100111110111110101000011000111001001111010000100101000101000000110011111011000000011111111100010001000001010000100011110100000010010000001000001011110011001100000111001111000110000010000000000111111001011110101011111011000010101101001100001111111001111111000011111011111000110000111111110011111101001111101000001111001111000001000100010100111100010001100011100110000001101111111000010010000101111111011111101110111101101110010111111110
10000010111111000000000000001000000111001111110000011000000101010001011000110010111110110000011111011000000001000001011111101111111010010000010000100011000010101111001100001011110000011111100000001110111001111111011111101010111011010000111100001010000110001111001111111001110111011110010011101010000111010000111100100011000101110000011011110001111001001111100100101011111001100000010011110101111010010010110100001100111101101111110000000001000001010010110000011011001101000000011000001000000101010000010011110110
10011110111101101100011011110101000001100000001111111100111110111111110011110101111100110001010000001110000000011110101011110001000010100001110111110100110011110001011011100010000000110000110000001101111110101111001011110110111110001110010011111010111001101101010111111100000011001111101111100110000101100000001111100111001110010010011000000001000001011110011100000100111001011111101100000100000100000000100000000010000001110011010000010111111111101111001000001001000001001111100000000110111001110001000000010001
10001001000001111111011101001000101111000000010100000011111001100001010000000011000100111110111011101011001100101111101011100110111101100001011100001000110110011011111100001010000000010000001011111111110100001110111011110100000101100000110100000111110110011111011111110011001000011011010100011100111010110001100000000010000001110000011100001111000001010001111111110110000011110001000001100101000000100000010111011110000010110001111011111110000010001101001000001110110101010000111000000101111011000001010111110101
11101001001011001111001100000100000101110000000111111110111010001111011011101100110111111100111100001001111110000011000100011111000011100000011100011111111101100001001000001001111111001111000011110010001000100000011100001110110111111110101000001000111000001011010011101100000001001110000000000100111111010000011011111001111100100000000011111001000111011110001011101110111100001111011011100000111111010000101011110001001000010000110111110110111100100001000000010011000111000000110100010010000000100001001100011000
10001110001000100000110011111111000000100000010111111011110011110001001100010001111101110000011000011000001101110000110011010110000000000001111000000111000010010000000100001101111011010001011011110101000001110011000111110001111000001110001100010110111101001110010000010100111110100000000100001001111100100000000000001110111111110001100000000011111111011111010111101110111010001111000011110111000000110001000011011101111010111111011000001011000010000000100100010000000001011111101100000110000110011111001011110100
10011101111110011010111000010110000000000001110000000000000101100000101100100011000100100010101000011001000010111110010011001011111101101111100000010110000010001110111000000111001100000000011111110000000011010001110011010000000011111111101101000011000011101111111111111111111111011111001000001011000000110000111000100101000101101111001011110110001010111110001011100100111001001100110100100100000000001111001001000011000000111111101111110101000101001100011100010111000010000000000000010010000011011100111011101110
10000000111111011110011100100010111001010001000000101010111101001101000100000111001111001100111000010101000100011111010011111010000001011110111001001011111000110001001011111000000101001111100011111110000011001111011111111110000110000000000100001011000000100000100000110101000010101100111000001001111101000001001011111011000110101110100111101111000001011111111100101001111011001101000000001000111100011111001111111100111101100000101111110000111111101111011000011110111110111111111111101111000110000010111011011111
10010111110010110101011000011100111110010000100111100100111010101101011111100111111100000001100011001000001011000011001110101010111110110000111011111001110110010001000100101110000000101101111100011110000111110001101100111010001100010001110000000111111011010010111100110110111101100000111111100111000001101011111111111000110110100001010011111111001101001111010000001100000011101111011111111011110110000010000011011101111011001100101000000000111110001111011111100111101101011101101011110101101010100000100001100000
10010011111111011111010011110101001001111101100011100110000010000000101111101110111011000001011100000001111010010001010011110011000000101111101000010100101111000001011111101000110111010100001111101100111111000001011011101110111011000011011000000110111110010001111111001011001011000001100111111000000010001101111000001110111110011111110000101010001011000001000111101001111101001110110011110110010001100001110000110101111001100011101111011001111011111101111000000110111000000010001011011011111111100001010000100101
10000000111110010101000000100110111001111101000011110111000000010001001111110011010000111011010011100010000000101110001011100000111010101011100011111111010010000011011000101010000000000101001011100111111111000000001011011111000000100010010111111011000001101100001100011110111101100011100000001000101100101111001111110000111010110010110111111110111111111111100000000010000001010011011011110101111110110001100111010101111101111010111100010011111111001110110100000000111101010001100011111100000010010010010011110101
10010100111000000000111000101000010001000000001001001011001010011110110100001101001010001111101000100011110010110011110100101001110010000100001100010010001001101111010100010111000011011110110011111010111100101111011100010001000011111101010011100101111011000000111000010000000000100000010011110010111010001111000000100111111110101110100011111001111100001111001111011100000011010000011011100111000000100010101100010111110101011111100000000101000010100000001011100110010011010000110000110010111010100000000011110001
11111111001110011111000011100100111100011101100010111100110110100001110000011101110001001111010000011010001000110000000100101011101000011111101011001000110111000000100111011111000000000000001011111110111101101110100011101011111001011111101100011101001011010101111011101011110111011110101000001110110110111100110100000111111010011111110011110010111110010000111000110110111110011111110000010101000101101110111011010100111011010000101000101011000000111101110100001110111011101101010111010010111111100011000000000001
10000110110110110010000000000011111001010000100100000000010011011111001011111000111110111111111000010001000011000001100111111010000001100010001011100101000010111110000111010000000101111101111111111100000010001110000011001001000000010001001011010001111110010001111100011101111011001100010000111000001100011110000011100010000011010000001000101010111011010001010011010000110100010001111111011010000001111111110000000100000001011111100011110100000110111110010011010010001001101111111101000001010100000000111000100101
11101111000110111100011111111010000011011110010011100011000110000010001000000000000101001100111111101011111010010100100111100111000010100001100111011000101111011101100000110011001010100000010111001010000100101111100111010101000001010010001011110111111101111111101011110111110111000001010000010111001011011111000000010001000010000000010111111010000110011101101100111101111001100000010000000101000101110001000011011001000100111110110011100000000000111110110000010100000011011110111011110000111111010010010111010101
11110111000011101110011000000111110111101110111000100000010011110011110000010101111001111101110100010011111100111111101011110111010010111111011000100111101000000000000000000001111000111011111111011011000000111111011011110100000101100011000000000001000011101111110100000110000000110000110111011011111110101111110011110111001100001110100000000101111100000001110100000011000011100000100000001100111011010000100111010100111110110010100100101000000111101110011100001101111100011110101100011111111101001110110011100010
